, 105586
. 99723
di 59812
a 54280
e 53169
che 47955
i 37816
o 36595
la 29575
è 29241
un 26493
il 24940
in 24487
are 24268
c@@ 20457
in@@ 19999
per 19662
ato 18301
s@@ 17816
una 17493
i@@ 16727
m@@ 16190
le 15996
non 15770
&quot; 14775
ar@@ 14721
di@@ 14148
f@@ 13955
si 13784
E 13627
p@@ 13622
d@@ 13428
t@@ 13386
v@@ 12865
da 12854
l@@ 12524
l&apos; 12070
r@@ 11643
ano 11414
b@@ 11319
sono 11309
ri@@ 11181
u@@ 11068
or@@ 10885
g@@ 10694
av@@ 10570
n@@ 10565
o@@ 10542
ale 10374
del 9702
vi@@ 9668
ci@@ 9602
at@@ 9586
ic@@ 9394
con 9242
più 9217
come 9167
: 9122
on@@ 9044
ma 9017
e@@ 9017
se 8999
es@@ 8964
? 8936
er@@ 8795
ci 8788
&apos; 8616
questo 8502
a@@ 8220
os@@ 8120
ità 8105
to 8054
an@@ 7951
te 7850
della 7779
li@@ 7748
oc@@ 7594
st@@ 7578
en@@ 7569
pi@@ 7490
si@@ 7445
gi@@ 7387
lo 7386
ol@@ 7332
con@@ 7297
al@@ 7275
ate 7263
S@@ 7261
ta 7261
am@@ 7247
C@@ 7179
azione 7128
mi 7120
amente 7073
sc@@ 7030
so 7001
qu@@ 6918
per@@ 6915
amo 6873
eg@@ 6726
et@@ 6638
ha 6538
ur@@ 6475
ica 6467
al 6414
it@@ 6381
de@@ 6277
ec@@ 6261
ati 6193
D@@ 6105
do 6095
is@@ 6067
ti 6048
ere 6028
tr@@ 6024
ac@@ 6008
enti 5989
pr@@ 5946
ag@@ 5901
io 5871
as@@ 5788
par@@ 5756
su@@ 5712
gli 5672
ore 5670
ando 5637
ata 5629
sp@@ 5627
nel 5567
ia 5520
zione 5510
ie 5375
ap@@ 5315
era 5310
chi@@ 5258
om@@ 5226
P@@ 5192
ico 5189
ente 5097
pot@@ 5092
vi 5090
ali 5078
im@@ 5062
ot@@ 5061
cosa 5038
att@@ 4977
ent@@ 4966
ti@@ 4963
ris@@ 4883
dei 4875
em@@ 4849
Ma 4821
ho 4802
op@@ 4781
A@@ 4753
delle 4723
ito 4632
molto 4629
ono 4589
com@@ 4557
questa 4556
anno 4529
ut@@ 4519
-- 4500
ter@@ 4451
str@@ 4440
us@@ 4395
à 4379
N@@ 4377
abbiamo 4363
el@@ 4301
ett@@ 4298
alla 4296
cui 4288
re@@ 4286
ete 4263
for@@ 4241
essere 4201
li 4198
loro 4196
re 4188
anni 4122
T@@ 4105
est@@ 4103
ev@@ 4101
ver@@ 4091
esso 4078
perché 4055
anche 4033
ante 4009
Non 3998
cor@@ 3992
um@@ 3964
ov@@ 3951
fare 3909
persone 3907
un@@ 3830
ad@@ 3826
mo 3818
uno 3756
og@@ 3738
ch@@ 3731
quando 3708
ò 3693
hanno 3663
no 3620
enza 3596
ist@@ 3595
solo 3569
z@@ 3520
La 3514
va 3509
dell&apos; 3490
ai 3482
così 3408
col@@ 3393
L@@ 3391
lu@@ 3391
1@@ 3382
etto 3374
tutto 3372
ric@@ 3360
B@@ 3354
cre@@ 3336
ce 3318
ad 3309
co 3301
su 3299
met@@ 3290
tutti 3286
man@@ 3280
ici 3276
vol@@ 3267
de 3263
ess@@ 3246
M@@ 3238
ura 3236
dere 3231
mondo 3229
ora 3229
vo 3217
uto 3212
un&apos; 3202
Il 3199
quello 3173
O@@ 3162
sol@@ 3151
fr@@ 3147
modo 3120
ina 3112
ori 3091
ne 3082
ig@@ 3061
po 3051
V@@ 3042
anti 3041
sta 3010
ten@@ 2987
ven@@ 2986
pen@@ 2965
azi@@ 2940
der@@ 2932
sia 2914
inter@@ 2912
fatto 2905
gr@@ 2882
oni 2850
cose 2844
ari 2826
ine 2814
me 2810
siamo 2806
I@@ 2803
ero 2780
nella 2768
G@@ 2760
ino 2744
ser@@ 2744
fac@@ 2730
c&apos; 2720
acc@@ 2718
gu@@ 2709
ire 2707
chi 2697
port@@ 2689
bi@@ 2653
questi 2633
pren@@ 2621
mi@@ 2618
cer@@ 2602
br@@ 2602
ab@@ 2581
H@@ 2578
and@@ 2565
au@@ 2562
dov@@ 2553
ati@@ 2552
fin@@ 2549
all&apos; 2532
all@@ 2532
olo 2531
ul@@ 2515
ciò 2513
ini 2513
queste 2513
noi 2505
far@@ 2498
ed 2498
ve 2496
sap@@ 2496
stato 2495
parte 2493
Quindi 2486
cap@@ 2463
pres@@ 2460
azioni 2458
mio 2440
prima 2440
contr@@ 2430
mo@@ 2426
rit@@ 2424
R@@ 2421
anza 2412
vita 2407
-@@ 2401
mia 2400
min@@ 2396
du@@ 2390
gen@@ 2389
one 2386
ca 2379
almente 2370
fi@@ 2369
qui 2330
ento 2325
sione 2324
due 2314
pos@@ 2299
diver@@ 2288
endo 2267
F@@ 2255
fic@@ 2243
ogni 2240
Questo 2232
Qu@@ 2225
E@@ 2223
co@@ 2217
ant@@ 2214
ole 2214
ani 2209
alle 2200
oi 2199
s 2197
y 2194
amento 2192
zioni 2192
entr@@ 2191
fa 2191
er 2185
edi@@ 2165
fer@@ 2156
ve@@ 2154
È 2146
car@@ 2116
d 2115
tre 2091
può 2087
ra@@ 2087
etti 2079
l 2076
trov@@ 2069
fon@@ 2066
pa@@ 2059
h@@ 2050
evo 2035
ava 2010
dal 2007
In 1995
ma@@ 1992
qualcosa 1986
u 1984
zz@@ 1981
ast@@ 1976
ni@@ 1962
vis@@ 1961
por@@ 1956
cambi@@ 1951
succ@@ 1943
k 1938
sa 1933
inizi@@ 1932
ì 1931
poi 1922
pens@@ 1917
ola 1907
bu@@ 1907
ra 1907
ei 1899
qual@@ 1894
ost@@ 1889
tra 1888
tempo 1884
altro 1874
ita 1873
aff@@ 1860
verso 1848
♫ 1848
mostr@@ 1845
dove 1843
sul 1841
ass@@ 1832
dis@@ 1831
degli 1826
ione 1817
il@@ 1810
tor@@ 1809
h 1806
iti 1806
A 1805
utt@@ 1800
gente 1794
migli@@ 1792
mai 1790
Un@@ 1788
mente 1786
unque 1785
abil@@ 1784
ir@@ 1784
- 1778
rebbe 1777
etti@@ 1777
ese 1768
dire 1766
na 1756
mat@@ 1754
cu@@ 1748
iamo 1747
pro@@ 1729
leg@@ 1729
vedere 1724
ancora 1717
izz@@ 1711
den@@ 1708
comp@@ 1705
Al@@ 1705
ello 1700
pre@@ 1698
prov@@ 1693
Se 1690
; 1683
an 1682
immag@@ 1678
sen@@ 1675
w@@ 1666
gra@@ 1664
ile 1656
sulla 1646
esi 1645
quel 1644
ni 1630
on 1628
... 1618
volta 1617
meno 1612
soci@@ 1611
da@@ 1609
sar@@ 1605
chiam@@ 1604
L&apos; 1603
piccol@@ 1598
ro 1597
atti@@ 1591
prog@@ 1590
ure 1588
grande 1587
prim@@ 1587
sci@@ 1582
eva 1582
divent@@ 1579
elli 1572
k@@ 1572
tras@@ 1571
vostr@@ 1570
voi 1557
zi@@ 1556
oll@@ 1551
quella 1550
nostro 1550
cam@@ 1547
sin@@ 1546
indi@@ 1545
pl@@ 1538
rag@@ 1531
vere 1529
davvero 1522
sal@@ 1519
emi 1519
mer@@ 1516
cia 1507
pers@@ 1503
possiamo 1500
mol@@ 1490
mor@@ 1479
ona 1479
I 1479
lavoro 1477
sul@@ 1472
medi@@ 1467
dur@@ 1465
dopo 1464
dalla 1463
Ora 1456
eff@@ 1454
cont@@ 1445
sempre 1444
erano 1440
bile 1433
t 1427
é 1426
nostra 1425
comun@@ 1420
otto 1415
quanto 1414
y@@ 1414
St@@ 1411
Sono 1405
J@@ 1401
Questa 1400
aggio 1400
storia 1399
oper@@ 1397
evano 1392
detto 1390
las@@ 1389
tu@@ 1387
el 1386
dic@@ 1385
5 1385
coll@@ 1384
altri 1378
cas@@ 1376
lavor@@ 1375
ezz@@ 1372
suo 1364
post@@ 1362
Per 1360
ogli@@ 1358
can@@ 1358
lin@@ 1355
guar@@ 1351
des@@ 1349
2@@ 1349
rest@@ 1347
sto 1344
cio 1344
ff@@ 1343
ult@@ 1337
sua 1337
Perché 1336
not@@ 1336
interess@@ 1334
quindi 1332
costru@@ 1332
d&apos; 1330
idea 1326
po@@ 1323
ont@@ 1321
za 1321
Ho 1318
reg@@ 1314
cin@@ 1308
Ch@@ 1307
0 1294
ren@@ 1292
peri@@ 1291
sic@@ 1288
giorno 1286
ana 1278
ell@@ 1269
avere 1268
emente 1264
nell&apos; 1263
senza 1263
uti 1262
asi 1261
Si 1261
nuov@@ 1260
uro 1260
cost@@ 1257
olog@@ 1252
segn@@ 1249
eb@@ 1248
inv@@ 1248
dec@@ 1244
bene 1236
Ci 1234
res@@ 1234
tel@@ 1233
ciamo 1232
pi 1230
rei 1226
00 1223
altra 1221
ene 1220
ed@@ 1217
avo 1216
In@@ 1216
mento 1212
itu@@ 1208
tutte 1206
nei 1205
problema 1203
compl@@ 1203
TED 1201
tipo 1197
abb@@ 1196
tro 1194
secon@@ 1192
essi@@ 1191
3@@ 1189
bas@@ 1189
proprio 1184
punto 1184
Abbiamo 1184
gono 1183
stesso 1181
pass@@ 1178
lio 1178
ario 1174
cerc@@ 1171
possono 1169
uom@@ 1165
semplic@@ 1164
realtà 1163
pon@@ 1163
conos@@ 1161
enzi@@ 1160
età 1156
mon@@ 1154
diff@@ 1154
Le 1153
nelle 1150
stu@@ 1148
dete 1147
pubbl@@ 1144
oggi 1144
ott@@ 1144
via 1142
esempio 1139
ulti@@ 1139
K@@ 1138
Grazie 1134
fine 1127
avano 1126
te@@ 1125
atori 1125
Come 1124
sor@@ 1122
diamo 1114
doman@@ 1109
stata 1108
ber@@ 1106
gi 1104
qualche 1102
Ed 1099
ord@@ 1097
ede 1094
fat@@ 1092
rap@@ 1091
An@@ 1091
obbiamo 1089
guard@@ 1089
gran@@ 1087
cres@@ 1087
bisogno 1086
parl@@ 1083
pp@@ 1083
ru@@ 1078
molti 1077
atto 1073
nostri 1073
importante 1071
vel@@ 1071
sistema 1070
asp@@ 1067
funzion@@ 1067
and 1065
or 1065
giu@@ 1064
oso 1063
eri 1060
fica 1054
se@@ 1053
conc@@ 1052
icol@@ 1051
tere 1049
cal@@ 1046
momento 1045
ppo 1044
rac@@ 1042
le@@ 1038
altre 1037
aggi@@ 1036
cominci@@ 1035
bambini 1034
dati 1033
nat@@ 1033
W@@ 1033
spi@@ 1032
cono 1031
sembr@@ 1030
oco 1027
Quando 1027
arriv@@ 1024
maggi@@ 1023
ace 1021
m 1015
id@@ 1014
viene 1013
! 1013
ar 1013
signi@@ 1013
fot@@ 1011
circa 1008
over@@ 1007
Così 1007
ragazz@@ 1006
Mi 1004
fil@@ 1003
mar@@ 1001
ness@@ 999
tà 997
proc@@ 997
part@@ 995
dall&apos; 995
cos@@ 992
mu@@ 992
zion@@ 992
chio 990
Er@@ 990
nuovo 987
gia 982
cell@@ 980
dono 978
forma@@ 974
econom@@ 972
zza 969
ob@@ 969
andare 967
sost@@ 965
esse 964
mal@@ 962
inci@@ 961
fuori 961
issi@@ 960
mag@@ 959
val@@ 958
emo 958
dice 956
uti@@ 954
bil@@ 952
svilu@@ 952
remmo 951
tem@@ 948
gli@@ 946
impar@@ 946
arsi 944
rem@@ 943
inc@@ 940
visto 940
attra@@ 938
mentre 937
negli 936
acqua 935
atore 931
ment@@ 930
2 927
posto 926
vero 925
Ecco 925
tut@@ 924
ing@@ 921
form@@ 921
propr@@ 918
volte 916
so@@ 916
mis@@ 916
creare 916
vic@@ 915
bili 915
cervello 915
gior@@ 914
ener@@ 913
Un 913
lia 911
present@@ 911
dello 910
tecnologia 910
ambi@@ 909
iti@@ 908
ricer@@ 908
aut@@ 908
segu@@ 906
essi 905
casa 905
num@@ 902
rius@@ 900
ri 898
erra 896
dir@@ 896
senti@@ 890
etro 890
condi@@ 889
ann@@ 889
abbi@@ 888
pas@@ 888
donne 885
rel@@ 882
disc@@ 881
città 880
ea 880
aveva 879
rete 878
gener@@ 876
hi@@ 875
ami@@ 874
sopr@@ 873
ger@@ 872
vers@@ 872
oti@@ 871
organ@@ 870
fosse 867
istr@@ 866
lung@@ 863
alcuni 863
uni@@ 860
pensare 859
ne@@ 859
allo 858
rebbero 857
pol@@ 857
ella 856
sarebbe 854
imp@@ 854
serv@@ 853
ezza 853
credo 853
n 851
fino 851
quest@@ 850
alizz@@ 849
potete 849
mac@@ 849
elle 848
stiamo 847
dai 847
app@@ 844
4@@ 843
stanno 842
test@@ 841
ece 840
Quest@@ 838
continu@@ 838
aiut@@ 836
stra@@ 836
milioni 835
qualcuno 835
pros@@ 834
aria 834
possibile 833
gl@@ 831
voglio 829
tanto 827
probl@@ 827
onale 827
insieme 826
capire 824
doll@@ 823
eta 823
ge 822
Talk 822
pag@@ 821
iche 819
sch@@ 816
stati 815
pian@@ 815
10 813
stessa 812
miei 812
rob@@ 811
forse 811
Pr@@ 808
prot@@ 808
sist@@ 808
mus@@ 808
stess@@ 806
enze 806
prod@@ 805
parlare 805
anim@@ 804
mili@@ 803
studi@@ 802
dendo 799
g 799
esto 798
plic@@ 797
8@@ 797
ane 793
quelle 792
vogli@@ 792
% 790
hi 790
fl@@ 788
nostr@@ 786
Subtitles 785
Transcript 785
differ@@ 784
U@@ 782
men@@ 781
sei 779
Per@@ 778
evol@@ 777
dr@@ 777
bl@@ 772
fis@@ 772
ret@@ 765
ette 764
4 757
tra@@ 754
prob@@ 752
stor@@ 750
izi@@ 749
nu@@ 743
&#9@@ 741
w 740
19@@ 739
ier@@ 727
Cos@@ 727
abor@@ 724
ù 722
lan@@ 720
ide@@ 718
Pot@@ 716
pri@@ 715
zie 713
9@@ 708
atter@@ 707
dar@@ 703
p 697
6@@ 689
ung@@ 689
anzi@@ 683
inn@@ 682
fu@@ 681
nor@@ 679
possi@@ 675
ogra@@ 673
arti@@ 673
5@@ 672
pun@@ 671
ro@@ 668
fel@@ 666
seg@@ 664
Y@@ 664
1 661
stru@@ 659
avi@@ 657
aus@@ 656
alcun@@ 653
stri@@ 649
ha@@ 649
7@@ 648
3 647
0@@ 646
ran@@ 644
program@@ 643
’ 641
pu@@ 637
bamb@@ 634
20 632
Be@@ 632
spe@@ 629
uter 628
ze 628
que 626
8 623
ben@@ 622
50 621
anz@@ 616
don@@ 615
no@@ 614
del@@ 612
amp@@ 609
es 608
cit@@ 604
eri@@ 603
amb@@ 600
enti@@ 599
arri@@ 599
vor@@ 598
ebbe 594
oro 589
real@@ 588
fa@@ 585
cir@@ 581
lav@@ 579
bar@@ 574
perim@@ 573
import@@ 571
6 570
000 566
polit@@ 565
cc@@ 564
bero 563
glob@@ 562
azz@@ 554
scri@@ 550
.@@ 545
amer@@ 542
vent@@ 542
tri@@ 540
Gu@@ 538
fos@@ 537
vello 535
ing 528
ner@@ 524
ai@@ 521
ee 521
as 520
produ@@ 519
rec@@ 518
opo 516
.000 514
7 509
det@@ 509
imm@@ 505
ché 504
sti@@ 503
Ne@@ 500
he 496
For@@ 486
30 484
anto 479
en 475
net 475
ef@@ 475
arb@@ 472
9 472
ot 468
Indi@@ 468
ste 465
Com@@ 463
Su@@ 461
ep@@ 458
Mar@@ 456
ule 455
Par@@ 454
Amer@@ 454
alc@@ 452
ge@@ 449
eder@@ 448
ang@@ 447
Di@@ 446
ell&apos; 446
est 443
off@@ 441
200@@ 437
neg@@ 435
Inter@@ 432
uc@@ 430
oo@@ 429
ade 428
dam@@ 427
mit@@ 424
tecnolog@@ 418
dom@@ 411
gest@@ 410
r 409
ende 406
c 404
sem@@ 403
x 401
be 398
sag@@ 397
ens@@ 396
O 396
bri@@ 395
Ar@@ 395
schi@@ 392
j@@ 392
pio 391
dav@@ 384
tec@@ 377
dig@@ 371
Ri@@ 370
,@@ 363
son 363
der 363
pic@@ 362
upp@@ 360
20@@ 358
S 352
sog@@ 352
be@@ 351
b 351
am 351
ema 346
Uni@@ 341
♪ 335
tit@@ 331
ay 319
Da 316
et 313
alis@@ 309
ess 306
rat@@ 306
na@@ 305
fun@@ 300
fas@@ 300
D 296
all 294
V 292
Vi@@ 291
fal@@ 291
end@@ 290
son@@ 290
acqu@@ 286
x@@ 286
L 275
us 273
C 273
os 271
oh@@ 267
ner 265
altr@@ 264
ram@@ 263
sig@@ 263
K 261
man 260
sel@@ 254
gan@@ 249
ur 248
Z@@ 248
f 248
Mi@@ 247
gel@@ 246
Nat@@ 241
esem@@ 238
G 238
Vor@@ 236
alt@@ 234
z 234
um 232
B 232
fan@@ 232
bin@@ 231
Gr@@ 229
M 228
Mon@@ 227
econ@@ 225
ben 222
ak@@ 219
Si@@ 218
Sp@@ 218
Li@@ 214
ele 212
passi@@ 211
her@@ 210
ex@@ 209
cher@@ 206
ter 205
En@@ 203
ft@@ 203
Mo@@ 202
T 202
” 202
bisog@@ 199
TE@@ 199
Men@@ 197
Pro@@ 195
omento 192
Sti@@ 191
he@@ 187
ah@@ 185
“ 185
bis@@ 184
Ma@@ 182
ster@@ 179
wor@@ 177
ch 176
Bu@@ 175
quot@@ 172
Tr@@ 171
Medi@@ 167
ke 166
ho@@ 164
spr@@ 164
X@@ 163
ker 157
ah 157
Bi@@ 156
at 155
– 153
ein@@ 152
Re@@ 150
mp@@ 148
R 147
Ge@@ 147
fol@@ 147
Ni@@ 146
ell 140
Wi@@ 140
Au@@ 136
Reg@@ 136
war@@ 136
Sch@@ 132
P 131
get@@ 130
ei@@ 129
zu@@ 128
H 128
ler 127
eme 127
die 126
Str@@ 123
Ver@@ 123
erz@@ 121
ein 120
Or@@ 119
To@@ 119
sie 119
/ 119
° 119
X 114
hin@@ 114
ation 112
star@@ 110
Bil@@ 110
q 108
Bl@@ 107
age 106
pre 105
Ph@@ 105
So 103
ation@@ 103
nis@@ 102
qualc@@ 101
kl@@ 100
rei@@ 100
soll@@ 99
hab@@ 98
eine 97
cora 95
Ber@@ 95
den 95
Mil@@ 95
ern@@ 94
im 93
nie 92
les 91
Gl@@ 91
ech@@ 89
v 88
ger 88
Mu@@ 88
Ab@@ 87
El@@ 87
ok@@ 86
Stu@@ 84
fe 84
ff 84
ach@@ 82
eu@@ 81
F 80
inu@@ 80
ert 79
Fl@@ 76
ft 75
.. 75
Mat@@ 73
Ein@@ 71
ort 70
Q@@ 70
ent 70
Tal@@ 69
das@@ 69
W 69
é@@ 68
ik@@ 68
Ec@@ 68
Fre@@ 67
Kin@@ 65
mer 65
ander@@ 64
fri@@ 63
apos@@ 62
Dan@@ 62
ek@@ 62
U 61
best@@ 61
end 61
wi@@ 61
ob 60
hr@@ 59
erte 59
her 59
Des@@ 58
hei@@ 57
N 56
nolog@@ 56
ab 56
liche 55
pub@@ 53
hal@@ 52
eh@@ 52
$ 51
und 49
also 49
— 48
bar 47
ber 47
eit@@ 46
wel@@ 44
&@@ 44
em 43
und@@ 43
mal 42
Fr@@ 41
st 41
ach 41
neu@@ 41
Pl@@ 40
biamo 40
ache 40
J 39
Man 39
War@@ 39
ler@@ 38
geg@@ 37
ist 37
Her@@ 37
ken@@ 37
á 36
Gra@@ 36
vo@@ 36
wa 36
insi@@ 35
Ex@@ 35
des 35
Spi@@ 35
ú 35
Y 34
ich 34
sam@@ 33
Ѐ 32
au 31
andel@@ 31
gem@@ 31
ens 30
Ges@@ 30
svi@@ 29
Tran@@ 29
ann 29
… 28
ag 28
lich@@ 28
ats@@ 28
ges@@ 28
+ 28
ung 28
 27
» 27
kt@@ 27
stell@@ 27
wer@@ 26
wir@@ 26
« 26
je@@ 26
= 25
Mit@@ 25
gend@@ 24
É 24
bei 24
_ 24
q@@ 23
eil 22
len 21
sen 21
cher 21
í 21
ig 21
Kon@@ 20
ó 20
è@@ 20
nis 19
tern 19
agen 19
Art 19
andere 19
Z 19
ier 18
@ 18
´ 18
von 17
yst@@ 17
ken 17
hat 17
bet@@ 17
obl@@ 17
Sub@@ 16
Q 16
j 16
du 16
# 16
ja 16
ystem 16
Ide@@ 15
mit 15
enn 14
&apos@@ 14
;@@ 14
ì@@ 14
Bei@@ 14
Um@@ 14
á@@ 13
geb@@ 13
bin 12
ehr@@ 12
ö@@ 12
als 12
lei@@ 12
hat@@ 12
elen 12
Technolog@@ 12
uns@@ 12
Zu@@ 11
elt 11
Wei@@ 11
eg 11
à@@ 11
men 11
wen@@ 10
lt 10
spre@@ 10
och 10
wic@@ 10
cht@@ 10
) 10
wei@@ 9
pt 9
eig@@ 9
reb@@ 9
wis@@ 9
war 9
dies@@ 9
Wis@@ 9
gen 9
ih@@ 9
hin 8
dem 8
atz 8
( 8
unter 8
indi 8
under@@ 8
ern 7
ó@@ 7
chen 7
ç@@ 7
* 7
tig@@ 7
weil 6
mei@@ 6
los@@ 6
tei@@ 6
ã@@ 6
iger 6
bes@@ 6
Proz@@ 6
Din@@ 6
beg@@ 5
í@@ 5
einer 5
sein 5
ten 5
dies 5
eder 5
Milli@@ 5
fen 5
ò@@ 5
unser@@ 5
ā@@ 5
sten 5
Probl@@ 5
ahr@@ 5
zen 5
ige 5
eren 5
zu 5
acht 4
alles 4
drei 4
unter@@ 4
immer 4
wo 4
Tech@@ 4
heit 4
will 4
gt 4
อ@@ 4
isch 3
ê@@ 3
ien 3
aber 3
scha@@ 3
glau@@ 3
kon@@ 3
schw@@ 3
script 3
etz@@ 3
cht 3
aten 3
vor 3
ä@@ 3
ehr 3
nte 3
wie 3
ahl 3
nach@@ 3
uns 3
aus 2
€ 2
bis 2
det 2
wur@@ 2
auf@@ 2
Gel@@ 2
mir 2
ć 2
dern 2
kti@@ 2
ù@@ 2
â@@ 2
nen@@ 2
utzen 2
auf 2
oder 2
½ 2
das 2
`@@ 2
Aus@@ 2
Á@@ 2
ë 2
kom@@ 2
aum 2
¼ 2
onen 2
igen 2
ñ@@ 2
​ 2
mt 2
ร 2
่ 2
ย 2
́ 2
lich 1
einem 1
ȏ@@ 1
ches 1
egen 1
ѐ 1
º 1
Ó@@ 1
 1
` 1
© 1
öh@@ 1
ā 1
ū@@ 1
ī 1
^ 1
deut@@ 1
Ich 1
habe 1
ú@@ 1
Č@@ 1
û 1
Was 1
─ 1
ø@@ 1
bei@@ 1
Es 1
noch 1
erst@@ 1
aut 1
È@@ 1
Å@@ 1
eben@@ 1
ʿ@@ 1
Geh@@ 1
Der 1
was 1
¾ 1
® 1
zw@@ 1
Ih@@ 1
ü@@ 1
ē 1
ł@@ 1
É@@ 1
nen 1
² 1
ische 1
für 1
﻿ 1
schen 1
Arb@@ 1
