, 142153
. 105824
die 43094
und 40328
der 32404
en 27869
es 27209
ist 25993
t 25384
in 24471
k@@ 24081
das 22847
er@@ 22762
zu 22692
s@@ 22297
er 21775
den 20988
ich 20129
wir 19077
t@@ 18975
l@@ 18442
s 17822
S@@ 17621
h@@ 16883
ein 16809
an@@ 16809
ten 16527
Sie 15832
K@@ 15471
sie 15290
eine 15211
st@@ 15134
&quot; 14718
te 14710
M@@ 14505
von 14257
z@@ 14194
dass 13964
nicht 13794
w@@ 13788
en@@ 13757
ver@@ 13737
e 13510
f@@ 13263
g@@ 13009
W@@ 12911
m@@ 12879
B@@ 12821
D@@ 12558
F@@ 12477
ung 12435
Und 12414
sch@@ 12411
b@@ 12140
n@@ 11980
in@@ 11461
mit 11270
auf 11125
H@@ 11110
T@@ 11041
um 10989
: 10921
o@@ 10865
ä@@ 10853
an 10663
L@@ 10454
d@@ 10283
g 10254
r@@ 10173
ch@@ 10139
e@@ 9864
wie 9839
Ich 9784
a@@ 9477
-@@ 9414
sich 9408
G@@ 9279
un@@ 9073
ein@@ 9003
au@@ 8999
i@@ 8977
sind 8905
ei@@ 8904
el@@ 8855
? 8791
li@@ 8708
für 8598
haben 8542
einen 8525
R@@ 8443
ri@@ 8252
dem 8134
als 8071
P@@ 8007
u@@ 7975
man 7597
war 7424
chen 7357
N@@ 7298
p@@ 7234
Das 7133
m 7109
ü@@ 7000
ar@@ 6976
al@@ 6951
so 6927
Sch@@ 6778
k 6769
A@@ 6747
gen 6724
aus 6677
or@@ 6625
Es 6561
be@@ 6541
was 6458
d 6431
ö@@ 6399
des 6366
diese 6340
lich 6331
si@@ 6305
cht 6222
em@@ 6177
ur@@ 6161
et@@ 6105
ge 6099
it@@ 6093
im 6083
Wir 6078
zi@@ 6009
re@@ 5971
Z@@ 5932
ge@@ 5881
de 5805
Ver@@ 5800
at@@ 5783
ent@@ 5779
uns 5756
wenn 5729
n 5667
st 5665
and 5663
einem 5580
am@@ 5552
einer 5498
ab@@ 5417
St@@ 5387
y@@ 5355
on@@ 5341
tr@@ 5322
zu@@ 5250
kl@@ 5237
ol@@ 5220
is@@ 5199
di@@ 5186
werden 5151
ungen 5106
über 5088
können 5080
oder 5074
eg@@ 5024
ie 5013
ra@@ 4926
el 4923
gen@@ 4900
hat 4875
O@@ 4798
auch 4797
J@@ 4710
ter 4706
ti@@ 4696
An@@ 4694
on 4674
eh@@ 4656
E@@ 4608
aus@@ 4599
che 4580
aber 4568
Die 4518
eb@@ 4516
än@@ 4493
Er@@ 4474
us@@ 4417
kann 4380
Aber 4368
nen 4344
um@@ 4313
cht@@ 4278
ot@@ 4238
nur 4204
om@@ 4204
es@@ 4201
et 4195
sen 4177
eit@@ 4079
wird 4019
sehr 3995
as@@ 3953
men 3924
rei@@ 3889
v@@ 3881
Menschen 3854
ken 3843
gibt 3835
– 3827
-- 3805
sehen 3801
Gr@@ 3789
mich 3789
hier 3781
ch 3780
l 3767
ek@@ 3766
eren 3743
ges@@ 3722
il@@ 3702
sein 3698
auf@@ 3694
1@@ 3677
bei 3672
ut@@ 3669
ert 3636
C@@ 3632
kt 3632
der@@ 3610
ber@@ 3606
sten 3599
dann 3587
In@@ 3577
ehen 3552
ag@@ 3538
ft 3525
gt 3522
ig@@ 3507
also 3493
se 3476
vor 3469
le 3463
noch 3450
lan@@ 3414
I@@ 3355
ste 3347
etwas 3342
f 3342
eu@@ 3304
r 3292
V@@ 3274
äh@@ 3245
her@@ 3234
da@@ 3222
mir 3207
fr@@ 3206
chten 3193
z 3191
wei@@ 3191
habe 3185
über@@ 3134
ben 3123
ern 3119
dieser 3118
len 3111
nach 3110
sen@@ 3094
a 3069
egen 3066
j@@ 3056
dar@@ 3018
op@@ 3015
os@@ 3009
am 3003
chte 2959
vi@@ 2919
ör@@ 2914
ter@@ 2911
ob@@ 2911
al 2899
mehr 2881
ischen 2881
ß@@ 2873
cher 2870
Welt 2863
alle 2857
ische 2852
vor@@ 2842
Wenn 2833
ier@@ 2833
zen 2810
gr@@ 2806
fen 2776
all@@ 2775
wen@@ 2773
gan@@ 2762
keit 2759
est@@ 2757
je@@ 2721
all 2689
oll@@ 2679
pr@@ 2664
kon@@ 2659
dr@@ 2657
den@@ 2651
geb@@ 2631
Ein@@ 2625
liche 2624
Ges@@ 2617
o 2606
ech@@ 2601
ell@@ 2589
ation 2576
wurde 2562
machen 2560
- 2547
lichen 2522
heit 2518
ni@@ 2514
ah@@ 2501
eines 2496
Ihnen 2471
kommen 2470
onen 2450
ger@@ 2434
ün@@ 2434
ik@@ 2433
sp@@ 2424
ul@@ 2419
y 2419
zum 2417
em 2396
durch 2384
ent 2381
ne 2378
war@@ 2351
ungs@@ 2348
zei@@ 2347
immer 2342
and@@ 2339
Au@@ 2335
og@@ 2333
meine 2315
wirklich 2314
Be@@ 2313
ann 2278
da 2254
weil 2242
äl@@ 2237
for@@ 2234
ke 2230
oh@@ 2226
Ge@@ 2207
eit 2205
wer@@ 2189
tun 2186
wor@@ 2178
wi@@ 2173
unter@@ 2172
ma@@ 2166
gel@@ 2164
Also 2161
Ar@@ 2160
groß@@ 2154
U@@ 2137
; 2129
schaft 2117
de@@ 2115
Er 2112
ieren 2108
ar 2104
viel 2101
ic@@ 2083
hin@@ 2075
c@@ 2069
hatte 2062
ere 2060
dieses 2055
ed@@ 2053
eben 2047
unsere 2042
sagen 2037
gli@@ 2033
mö@@ 2026
isch 2013
ati@@ 2009
ur 2005
Was 2003
fl@@ 1998
ihre 1980
lei@@ 1978
Pr@@ 1972
keine 1970
best@@ 1967
aten 1967
off@@ 1966
En@@ 1965
Al@@ 1964
Vor@@ 1964
beg@@ 1963
ex@@ 1960
bl@@ 1944
hr@@ 1941
u 1939
pl@@ 1936
Zeit 1926
Leben 1925
men@@ 1919
diesem 1917
Leute 1914
ze 1912
viele 1909
br@@ 1905
och 1900
müssen 1896
waren 1893
auen 1887
lich@@ 1873
bi@@ 1869
ap@@ 1863
ür@@ 1859
elt 1853
stell@@ 1844
wissen 1839
sagte 1838
gesch@@ 1829
Bil@@ 1828
wel@@ 1826
einfach 1816
Dinge 1814
führ@@ 1810
diesen 1803
mit@@ 1799
gew@@ 1794
iert 1793
agen 1791
Ch@@ 1788
soll@@ 1786
♫ 1786
inn@@ 1785
Jahren 1782
ellen 1778
ir@@ 1765
gehen 1765
su@@ 1764
stellen 1761
me 1760
In 1757
är@@ 1756
eten 1754
ff@@ 1751
mal 1747
anderen 1737
elen 1736
ück@@ 1735
bei@@ 1735
wo 1732
kti@@ 1725
jetzt 1723
or 1721
gl@@ 1713
ak@@ 1707
Zu@@ 1704
bin 1702
sag@@ 1702
äu@@ 1701
zwei 1697
eg 1696
zur 1692
geht 1691
ihr 1689
h 1686
so@@ 1685
Der 1680
ist@@ 1679
andere 1671
Aus@@ 1668
fin@@ 1655
Wie 1647
Di@@ 1647
det 1645
Unter@@ 1639
lt 1639
Art 1636
ran@@ 1627
versu@@ 1623
ger 1619
os 1616
ehr@@ 1614
Or@@ 1613
Ent@@ 1607
fü@@ 1606
tra@@ 1606
end 1597
alles 1591
ität 1584
finden 1583
gest@@ 1577
ann@@ 1577
kom@@ 1574
str@@ 1568
Vi@@ 1568
würde 1564
geh@@ 1562
lie@@ 1559
verst@@ 1547
damit 1547
ach@@ 1546
ken@@ 1546
fan@@ 1541
ale 1539
nehmen 1535
Re@@ 1535
gi@@ 1532
bis 1530
ß 1529
Li@@ 1527
elle 1527
eln 1526
ander@@ 1526
und@@ 1523
Jahre 1519
füh@@ 1515
fol@@ 1513
2@@ 1508
letz@@ 1506
Milli@@ 1505
per@@ 1498
spi@@ 1490
sel@@ 1486
selbst 1481
lu@@ 1480
ien 1471
arb@@ 1464
hal@@ 1462
For@@ 1459
rit@@ 1449
ob 1448
Kon@@ 1447
schl@@ 1446
fahr@@ 1444
halten 1443
spr@@ 1441
bes@@ 1438
ec@@ 1438
du 1436
wichti@@ 1435
eht 1427
ßen 1426
du@@ 1426
brau@@ 1425
denken 1422
essen 1418
0@@ 1416
ad@@ 1408
ern@@ 1407
nten 1401
fer@@ 1400
dies 1399
sol@@ 1397
Pro@@ 1396
ing 1396
hi@@ 1396
under@@ 1395
schn@@ 1393
ache 1367
bew@@ 1367
tei@@ 1364
age 1354
gut 1352
mu@@ 1350
3@@ 1349
schen 1347
muss 1347
hei@@ 1342
mein 1336
ben@@ 1333
schaft@@ 1332
denen 1330
chti@@ 1329
Dan@@ 1329
ru@@ 1328
unser@@ 1327
Man 1323
mei@@ 1322
Reg@@ 1316
schi@@ 1315
vielleicht 1308
schon 1303
ihnen 1302
zusam@@ 1301
geg@@ 1301
Str@@ 1299
utz@@ 1296
b 1296
ät@@ 1296
Kin@@ 1293
Men@@ 1291
glau@@ 1290
ens 1288
geben 1287
ok@@ 1285
Ab@@ 1282
ationen 1282
Ide@@ 1282
wieder 1277
lin@@ 1274
möchte 1272
denn 1270
ten@@ 1267
Un@@ 1267
ant@@ 1263
Nun 1260
dung 1259
eiten 1253
imm@@ 1252
Wis@@ 1250
bet@@ 1248
üt@@ 1248
esen 1247
bess@@ 1244
5 1237
ahr@@ 1234
jem@@ 1229
schein@@ 1228
at 1227
le@@ 1225
Geschichte 1224
her 1220
kommt 1220
Inter@@ 1219
halb 1211
mer@@ 1208
bil@@ 1201
fas@@ 1198
nach@@ 1196
ler 1195
davon 1193
glei@@ 1190
Auf@@ 1186
Mit@@ 1185
kt@@ 1182
aum 1180
nen@@ 1180
ft@@ 1179
&apos; 1174
ön@@ 1172
unden 1172
iti@@ 1172
ess@@ 1172
Proz@@ 1170
A 1169
hatten 1167
nte 1166
mi@@ 1164
heute 1157
inter@@ 1153
ete 1153
get@@ 1151
neu@@ 1142
weise 1141
Diese 1141
etzt 1137
lassen 1131
Wei@@ 1129
eri@@ 1128
alen 1127
ende 1126
ganz 1124
Kinder 1120
glich 1120
Hier 1120
leben 1114
ler@@ 1113
Her@@ 1108
änder@@ 1107
00 1107
enden 1106
unter 1105
einige 1102
könnte 1101
Per@@ 1100
ha@@ 1097
darüber 1095
größ@@ 1094
besch@@ 1094
woll@@ 1093
sam@@ 1092
! 1091
andel@@ 1091
bringen 1090
wä@@ 1089
nt 1087
etz@@ 1084
Um@@ 1080
schw@@ 1080
jek@@ 1079
dern 1077
üh@@ 1077
p 1075
ac@@ 1072
ändern 1071
ner 1070
sondern 1070
ihn 1067
Jahr 1067
im@@ 1067
erte 1066
genau 1064
wollen 1063
erst@@ 1062
Sp@@ 1062
Ma@@ 1062
eigen@@ 1060
schie@@ 1060
cher@@ 1058
drei 1057
eite 1057
ih@@ 1055
dort 1053
aut 1051
fri@@ 1050
hör@@ 1050
Gehir@@ 1049
sieht 1048
olog@@ 1047
TED 1047
nah@@ 1045
nun 1045
ell 1045
nis 1045
gef@@ 1044
meiner 1039
Stu@@ 1039
seine 1038
Gel@@ 1037
gab 1037
be 1036
ei 1031
werde 1029
wurden 1025
gem@@ 1023
tel@@ 1023
unserer 1020
paar 1017
Ein 1017
as 1009
unde 1007
x@@ 1006
zeu@@ 1005
scha@@ 1000
Als 1000
ation@@ 1000
Ü@@ 999
wir@@ 997
Bl@@ 996
fe 994
Leben@@ 989
nung 988
entwick@@ 987
Fre@@ 985
agt 985
he 983
Ber@@ 983
neue 981
Mar@@ 979
macht 979
Beispiel 978
vom 975
zwischen 975
Gl@@ 975
utzen 970
iger 970
mer 968
erzäh@@ 966
denke 962
ing@@ 962
schei@@ 961
Mu@@ 959
kam 957
0 957
Problem 954
Technolog@@ 953
eben@@ 953
eig@@ 952
dazu 952
kte 951
ach 950
net 950
nat@@ 949
egt 948
wäre 947
ser@@ 943
tern 942
ches 942
he@@ 937
Des@@ 937
oc@@ 937
üc@@ 937
ve 936
tatsächlich 935
Teil 933
Mi@@ 933
4@@ 933
hät@@ 933
wahr@@ 933
bin@@ 930
eil 928
setz@@ 927
bar 927
ost@@ 926
kein 926
äd@@ 925
ürlich 924
weiter 923
ystem 922
Spi@@ 921
bar@@ 921
äch@@ 918
19@@ 918
acht 916
keiten 914
ihr@@ 911
eme 910
chi@@ 908
El@@ 907
ften 904
sogar 904
gemacht 904
irgend@@ 904
entlich 902
est 899
uti@@ 898
mp@@ 898
mus@@ 897
are 896
Bi@@ 895
qu@@ 894
Frauen 893
funktion@@ 893
nie 892
gu@@ 892
öff@@ 891
ef@@ 888
bt 888
So 885
Nach@@ 885
zeigen 884
tig 880
weiß 878
kön@@ 878
igen 878
ohne 877
durch@@ 876
Tag 875
ja 875
Ne@@ 874
spre@@ 873
Ih@@ 873
allen 870
atz 869
einmal 869
Frage 869
Ex@@ 867
nichts 867
Kom@@ 861
aufen 860
ung@@ 859
Wir@@ 859
form@@ 858
Arbeit 857
Dies 857
gerade 857
näch@@ 857
pi@@ 856
zurück 856
pro@@ 855
dafür 855
ahl 855
8@@ 854
heraus@@ 854
unser 853
würden 852
los@@ 852
ihren 851
2 846
wa 844
War@@ 844
Mon@@ 844
5@@ 843
tigen 840
Par@@ 840
Pl@@ 839
wis@@ 839
son 838
glaube 837
hin 837
bedeut@@ 837
achen 836
ele 834
zwei@@ 833
schaffen 832
arbeiten 830
ho@@ 828
nis@@ 828
ah 826
öh@@ 824
Talk 823
alten 822
Medi@@ 821
ersten 821
Eine 820
asser 819
wohl 818
des@@ 817
mensch@@ 816
alt@@ 815
Ihre 815
Fl@@ 814
ßt 813
Jahr@@ 813
v 812
tu@@ 809
passiert 809
Ph@@ 809
zur@@ 809
kann@@ 808
öl@@ 808
will 808
ene 807
tig@@ 806
eich 806
kennen 806
Com@@ 802
stän@@ 800
ker 800
während 799
beh@@ 799
izi@@ 798
upp@@ 794
Bu@@ 794
ro@@ 794
Mo@@ 793
ig 793
w 792
Si@@ 790
mt 785
Subtitles 785
Transcript 785
re 782
ige 781
&#9@@ 778
star@@ 774
Ni@@ 765
To@@ 765
entr@@ 763
Mat@@ 760
arti@@ 759
Nat@@ 757
ff 756
Ä@@ 754
ine 754
ast@@ 746
mo@@ 746
ück 743
i 742
Uni@@ 742
Ri@@ 741
6@@ 739
ev@@ 738
eff@@ 732
fi@@ 732
vol@@ 732
ult@@ 729
9@@ 728
dec@@ 726
Y@@ 724
aff@@ 722
.@@ 719
Sti@@ 716
7@@ 714
oß@@ 713
man@@ 713
par@@ 712
Tr@@ 711
sti@@ 711
leg@@ 708
sor@@ 702
ab 701
eder@@ 701
ett@@ 697
ed 697
Wi@@ 695
ster@@ 693
fun@@ 689
ne@@ 682
Probl@@ 681
per 678
att@@ 673
Qu@@ 672
10 669
las@@ 666
Ö@@ 665
eder 661
.000 660
amp@@ 659
x 654
au 649
üs@@ 648
ay 645
bis@@ 639
ate 632
pt 631
uc@@ 628
oo@@ 623
yst@@ 622
ord@@ 615
wic@@ 614
erz@@ 613
fal@@ 610
4 610
... 609
Din@@ 607
ren@@ 606
nor@@ 606
del@@ 600
na@@ 593
ag 590
„ 589
3 588
enti@@ 588
neh@@ 585
interess@@ 582
vers@@ 582
uter 582
20 581
pp@@ 580
ov@@ 578
us 576
enn 575
1 575
dig@@ 572
Indi@@ 572
alis@@ 567
% 566
ens@@ 563
8 562
ep@@ 560
zus@@ 555
50 553
reb@@ 551
rat@@ 551
amer@@ 550
edi@@ 550
ont@@ 548
ule 546
ide@@ 545
Su@@ 544
end@@ 543
“ 539
ris@@ 539
min@@ 538
reg@@ 538
Ihr@@ 538
ber 535
ener@@ 530
einfa@@ 523
ingen 522
ess 519
no@@ 518
ass@@ 518
inu@@ 510
ram@@ 507
wirk@@ 503
6 502
essi@@ 500
mal@@ 499
Amer@@ 498
Da 495
bri@@ 494
produ@@ 492
sin@@ 489
ier 487
ente 487
fa@@ 480
ort 480
ma 478
aut@@ 474
oti@@ 474
20@@ 474
itä@@ 470
pas@@ 470
ce 464
Frag@@ 462
ats@@ 462
deut@@ 461
mor@@ 456
S 455
itu@@ 454
ina 453
son@@ 452
200@@ 451
woh@@ 451
tere 443
Geschi@@ 443
stru@@ 442
mat@@ 441
000 440
ang@@ 436
se@@ 436
rec@@ 435
pers@@ 433
7 432
anz@@ 431
30 428
passi@@ 426
del 426
to 422
dam@@ 422
chts 418
sei 417
pun@@ 410
ami@@ 408
mar@@ 408
glob@@ 400
tri@@ 395
9 393
Arb@@ 392
ahr 390
,@@ 389
♪ 386
perim@@ 383
wil@@ 379
Fr@@ 376
mis@@ 375
elleicht 372
öß@@ 364
av@@ 363
zw@@ 359
te@@ 356
les 353
met@@ 353
ot 347
indi@@ 346
ner@@ 345
bu@@ 345
Tech@@ 345
esse 340
tor@@ 333
ee 333
ure 333
TE@@ 332
ante 325
Gu@@ 323
anche 322
dis@@ 319
il 318
polit@@ 318
ven@@ 318
co@@ 316
one 316
ema 314
ette 312
Gra@@ 311
spe@@ 308
anzi@@ 307
Mil@@ 307
test@@ 307
ehr 305
ffen 305
fel@@ 303
fu@@ 300
pen@@ 298
eute 298
ia 297
ogra@@ 297
dere 291
stri@@ 289
organ@@ 288
K 287
Tran@@ 285
rel@@ 282
evol@@ 282
app@@ 274
rei 273
c 273
wür@@ 272
hab@@ 266
dete 265
Geh@@ 264
medi@@ 263
rag@@ 260
Bei@@ 251
ede 251
pa@@ 249
mon@@ 246
avi@@ 243
pos@@ 241
bst 240
un 240
ai@@ 238
studi@@ 235
program@@ 235
ret@@ 234
M 225
B 223
ott@@ 223
pon@@ 221
hrend 220
gend@@ 217
atsächlich 215
Beispi@@ 215
por@@ 214
ese 213
D 210
ad 210
ci@@ 207
res@@ 207
C 207
G 205
tem@@ 205
dies@@ 204
rap@@ 201
not@@ 198
la 197
T 196
pri@@ 195
ra 195
müs@@ 194
pot@@ 193
&@@ 191
nolog@@ 190
ment@@ 187
era 183
pu@@ 182
ric@@ 181
ore 180
/ 180
ane 177
inv@@ 176
arri@@ 175
vis@@ 175
fil@@ 175
» 173
imp@@ 173
uns@@ 172
senti@@ 172
P 172
I 171
ade 170
ktion@@ 170
det@@ 170
« 169
stor@@ 169
oper@@ 167
V 166
enzi@@ 165
pres@@ 161
probl@@ 161
real@@ 158
essere 158
rob@@ 156
azi@@ 155
ulti@@ 155
stu@@ 154
amb@@ 153
— 153
O 153
bene 151
ana 150
sig@@ 149
ha 145
das@@ 143
ai 141
po@@ 141
io 141
ve@@ 140
H 138
Tal@@ 136
amente 135
amit 135
uni@@ 135
ole 134
R 134
stra@@ 132
Pot@@ 131
id@@ 130
abil@@ 130
rem@@ 129
sto 129
far@@ 128
sog@@ 127
qual@@ 127
mol@@ 126
L 125
sar@@ 122
fot@@ 120
mag@@ 119
Ec@@ 117
fon@@ 116
issi@@ 116
neg@@ 115
gra@@ 112
delle 109
abb@@ 109
gener@@ 108
wur@@ 108
abor@@ 108
E 104
ächlich 103
pol@@ 102
onale 101
F 99
enze 98
co 96
port@@ 96
ta 96
atter@@ 95
dom@@ 94
pre@@ 93
Sub@@ 92
N 91
sal@@ 91
zz@@ 90
hi 89
fis@@ 88
W 88
X@@ 88
na 86
sc@@ 82
part@@ 80
emente 80
ica 79
dur@@ 78
do 75
allo 74
insi@@ 74
rest@@ 73
asi 73
$ 72
eicht 72
serv@@ 71
pub@@ 70
post@@ 69
prov@@ 68
prob@@ 68
sist@@ 68
di 67
pass@@ 64
ace 63
ola 63
aria 62
ea 61
mac@@ 60
tras@@ 59
prot@@ 58
don@@ 55
entwic@@ 54
dic@@ 54
iti 54
val@@ 53
over@@ 53
U 52
vic@@ 51
Q@@ 48
utt@@ 48
nu@@ 48
fos@@ 47
po 46
” 46
X 45
ata 45
pren@@ 44
gente 44
tit@@ 44
ino 43
ani 43
quelle 42
li 42
fac@@ 42
› 42
‹ 42
prim@@ 41
col@@ 41
ora 40
comp@@ 40
peri@@ 39
num@@ 38
inc@@ 37
seg@@ 37
tra 37
ura 36
ro 36
ali 36
izz@@ 36
vo@@ 35
ca 35
rac@@ 35
com@@ 35
ero 34
attra@@ 34
.. 34
é@@ 33
lo 33
é 33
via 32
diver@@ 32
con@@ 32
otto 32
sul@@ 32
ario 31
za 31
J 31
… 31
mi 31
La 31
va 30
ari 29
signi@@ 29
‘ 29
econ@@ 28
cu@@ 28
ini 28
+ 28
hat@@ 27
β@@ 27
azz@@ 27
ati 27
ile 26
ona 26
á@@ 26
ire 26
_ 26
uno 25
gran@@ 25
ho 25
= 25
dav@@ 25
uro 25
bile 24
circa 24
vere 24
can@@ 24
etti@@ 24
sem@@ 24
differ@@ 24
ri 24
Y 24
nel 23
lia 23
ita 23
fine 23
ano 22
que 22
zza 22
’ 22
si 22
q@@ 21
ico 21
atti@@ 21
° 21
ness@@ 21
ava 20
Q 20
² 20
istr@@ 19
dal 19
obl@@ 19
ci 18
Z 18
vent@@ 18
cc@@ 18
ti 18
ando 17
fa 17
una 17
ori 17
svi@@ 17
rete 17
car@@ 17
vel@@ 16
cre@@ 16
sic@@ 16
sa 16
asp@@ 16
cor@@ 16
sta 15
mente 15
chi 15
è@@ 15
ono 15
emo 15
ambi@@ 15
oi 14
lung@@ 14
ç@@ 14
´ 14
elli 13
j 13
ello 13
ato 13
ni 12
bas@@ 12
ã@@ 12
dir@@ 12
gia 12
no 12
altr@@ 11
erra 11
etto 11
sap@@ 11
‟ 11
ó@@ 10
olo 10
pic@@ 10
indi 10
etti 10
ü 9
Ed 9
à 9
parte 9
ñ@@ 9
fat@@ 9
ito 9
prog@@ 9
‚ 9
í@@ 8
abbi@@ 8
cer@@ 8
anim@@ 8
½ 8
iche 8
pros@@ 8
esi 8
ella 8
sia 8
‒ 8
vo 7
acqu@@ 7
oni 7
ricer@@ 7
soci@@ 7
prima 7
tre 7
non 7
) 7
cos@@ 6
# 6
á 6
avo 6
eta 6
cal@@ 6
oro 6
amo 6
cin@@ 6
mo 6
Le 6
parl@@ 6
cas@@ 6
zie 5
uti 5
essi 5
 5
tro 5
anto 5
nei 5
@ 5
enza 5
evo 5
lav@@ 5
€ 5
Per 5
pag@@ 5
diff@@ 5
q 4
eva 4
anza 4
Ma 4
quot@@ 4
 4
conc@@ 4
Un 4
inci@@ 4
 4
cir@@ 4
dai 4
cam@@ 4
ö 4
forma@@ 4
amento 4
nelle 4
endo 4
pi 4
Cos@@ 4
acc@@ 4
con 4
­ 4
Sono 3
ê@@ 3
cap@@ 3
í 3
¼ 3
ā@@ 3
^ 3
Grazie 3
( 3
possi@@ 3
anti 3
gi 3
â@@ 3
ó 3
alc@@ 3
icol@@ 3
 3
lio 3
Å@@ 3
fic@@ 3
quel 3
cont@@ 3
œ@@ 3
dice 3
esso 2
mili@@ 2
ô@@ 2
etro 2
esto 2
¥ 2
condi@@ 2
fica 2
ć 2
cia 2
emi 2
solo 2
ú@@ 2
alla 2
` 2
anni 2
ento 2
ezz@@ 2
oso 2
opo 2
enti 2
atore 2
pens@@ 2
sci@@ 2
disc@@ 2
Á@@ 2
ë@@ 2
Il 2
cell@@ 2
¡ 2
chio 2
cit@@ 2
doll@@ 2
β 2
dei 1
segn@@ 1
³ 1
present@@ 1
vi 1
¾ 1
Non 1
¶ 1
apos@@ 1
™ 1
ā 1
ū@@ 1
ī 1
tempo 1
tec@@ 1
Č@@ 1
econom@@ 1
ø@@ 1
degli 1
Mi 1
® 1
andare 1
ece 1
ý@@ 1
come 1
ezza 1
plic@@ 1
fare 1
sopr@@ 1
anno 1
bamb@@ 1
acqua 1
coll@@ 1
© 1
è 1
qui 1
Come 1
﻿ 1
modo 1
zion@@ 1
avere 1
vita 1
mia 1
É@@ 1
tut@@ 1
propr@@ 1
aggio 1
della 1
к@@ 1
ī@@ 1
uto 1
ō@@ 1
î@@ 1
× 1
`@@ 1
* 1
Ӓ@@ 1
fino 1
ppo 1
